
#ifdef __has_attribute
#define HAVE_ATTRIBUTE(x) __has_attribute(x)
#else
#define HAVE_ATTRIBUTE(x) 0
#endif
#if HAVE_ATTRIBUTE(aligned) || (defined(__GNUC__) && !defined(__clang__))
#define DATA_ALIGN_ATTRIBUTE __attribute__((aligned(4)))
#else
#define DATA_ALIGN_ATTRIBUTE
#endif

const unsigned char model_data[] DATA_ALIGN_ATTRIBUTE = {0x1c, 0x00, 0x00, 0x00, 0x54, 0x46, 0x4c, 0x33, 0x00, 0x00, 0x12, 0x00, 0x1c, 0x00, 0x04, 0x00, 0x08, 0x00, 0x0c, 0x00, 0x10, 0x00, 0x14, 0x00, 0x00, 0x00, 0x18, 0x00, 0x12, 0x00, 0x00, 0x00, 0x03, 0x00, 0x00, 0x00, 0xe4, 0x1a, 0x00, 0x00, 0x10, 0x00, 0x00, 0x00, 0x1c, 0x00, 0x00, 0x00, 0x2c, 0x00, 0x00, 0x00, 0x0c, 0x00, 0x00, 0x00, 0x01, 0x00, 0x00, 0x00, 0xe4, 0x00, 0x00, 0x00, 0x01, 0x00, 0x00, 0x00, 0xac, 0x00, 0x00, 0x00, 0x0f, 0x00, 0x00, 0x00, 0x54, 0x4f, 0x43, 0x4f, 0x20, 0x43, 0x6f, 0x6e, 0x76, 0x65, 0x72, 0x74, 0x65, 0x64, 0x2e, 0x00, 0x0d, 0x00, 0x00, 0x00, 0x80, 0x00, 0x00, 0x00, 0x74, 0x00, 0x00, 0x00, 0x68, 0x00, 0x00, 0x00, 0x5c, 0x00, 0x00, 0x00, 0x50, 0x00, 0x00, 0x00, 0x48, 0x00, 0x00, 0x00, 0x40, 0x00, 0x00, 0x00, 0x34, 0x00, 0x00, 0x00, 0x28, 0x00, 0x00, 0x00, 0x20, 0x00, 0x00, 0x00, 0x18, 0x00, 0x00, 0x00, 0x10, 0x00, 0x00, 0x00, 0x04, 0x00, 0x00, 0x00, 0x62, 0xe6, 0xff, 0xff, 0x4c, 0x00, 0x00, 0x00, 0x28, 0xe6, 0xff, 0xff, 0x2c, 0xe6, 0xff, 0xff, 0x30, 0xe6, 0xff, 0xff, 0x76, 0xe6, 0xff, 0xff, 0x08, 0x02, 0x00, 0x00, 0x7e, 0xe6, 0xff, 0xff, 0x4c, 0x06, 0x00, 0x00, 0x44, 0xe6, 0xff, 0xff, 0x48, 0xe6, 0xff, 0xff, 0x8e, 0xe6, 0xff, 0xff, 0x9c, 0x07, 0x00, 0x00, 0x96, 0xe6, 0xff, 0xff, 0xe0, 0x17, 0x00, 0x00, 0x9e, 0xe6, 0xff, 0xff, 0x5c, 0x18, 0x00, 0x00, 0xa6, 0xe6, 0xff, 0xff, 0xf0, 0x18, 0x00, 0x00, 0x6c, 0xe6, 0xff, 0xff, 0x05, 0x00, 0x00, 0x00, 0x31, 0x2e, 0x35, 0x2e, 0x30, 0x00, 0x00, 0x00, 0xc0, 0xfe, 0xff, 0xff, 0x08, 0x00, 0x00, 0x00, 0x0c, 0x00, 0x00, 0x00, 0x13, 0x00, 0x00, 0x00, 0x6d, 0x69, 0x6e, 0x5f, 0x72, 0x75, 0x6e, 0x74, 0x69, 0x6d, 0x65, 0x5f, 0x76, 0x65, 0x72, 0x73, 0x69, 0x6f, 0x6e, 0x00, 0x0c, 0x00, 0x14, 0x00, 0x04, 0x00, 0x08, 0x00, 0x0c, 0x00, 0x10, 0x00, 0x0c, 0x00, 0x00, 0x00, 0x20, 0x00, 0x00, 0x00, 0x14, 0x00, 0x00, 0x00, 0x08, 0x00, 0x00, 0x00, 0xa8, 0x18, 0x00, 0x00, 0x01, 0x00, 0x00, 0x00, 0x00, 0x00, 0x00, 0x00, 0x01, 0x00, 0x00, 0x00, 0x01, 0x00, 0x00, 0x00, 0x0b, 0x00, 0x00, 0x00, 0x84, 0x06, 0x00, 0x00, 0xb0, 0x00, 0x00, 0x00, 0xb0, 0x06, 0x00, 0x00, 0x64, 0x05, 0x00, 0x00, 0x1c, 0x00, 0x00, 0x00, 0xf8, 0x00, 0x00, 0x00, 0x04, 0x17, 0x00, 0x00, 0x54, 0x00, 0x00, 0x00, 0x1c, 0x06, 0x00, 0x00, 0x64, 0x17, 0x00, 0x00, 0x14, 0x18, 0x00, 0x00, 0xfe, 0xe7, 0xff, 0xff, 0x10, 0x00, 0x00, 0x00, 0x0b, 0x00, 0x00, 0x00, 0x14, 0x00, 0x00, 0x00, 0x30, 0x00, 0x00, 0x00, 0x02, 0x00, 0x00, 0x00, 0x01, 0x00, 0x00, 0x00, 0x20, 0x00, 0x00, 0x00, 0x19, 0x00, 0x00, 0x00, 0x73, 0x65, 0x71, 0x75, 0x65, 0x6e, 0x74, 0x69, 0x61, 0x6c, 0x5f, 0x31, 0x2f, 0x64, 0x65, 0x6e, 0x73, 0x65, 0x5f, 0x33, 0x2f, 0x52, 0x65, 0x6c, 0x75, 0x00, 0x00, 0x00, 0x40, 0xe7, 0xff, 0xff, 0x42, 0xe8, 0xff, 0xff, 0x10, 0x00, 0x00, 0x00, 0x0a, 0x00, 0x00, 0x00, 0x14, 0x00, 0x00, 0x00, 0x30, 0x00, 0x00, 0x00, 0x02, 0x00, 0x00, 0x00, 0x01, 0x00, 0x00, 0x00, 0x08, 0x00, 0x00, 0x00, 0x19, 0x00, 0x00, 0x00, 0x73, 0x65, 0x71, 0x75, 0x65, 0x6e, 0x74, 0x69, 0x61, 0x6c, 0x5f, 0x31, 0x2f, 0x64, 0x65, 0x6e, 0x73, 0x65, 0x5f, 0x34, 0x2f, 0x52, 0x65, 0x6c, 0x75, 0x00, 0x00, 0x00, 0x84, 0xe7, 0xff, 0xff, 0x86, 0xe8, 0xff, 0xff, 0x10, 0x00, 0x00, 0x00, 0x09, 0x00, 0x00, 0x00, 0x14, 0x00, 0x00, 0x00, 0x2c, 0x00, 0x00, 0x00, 0x02, 0x00, 0x00, 0x00, 0x01, 0x00, 0x00, 0x00, 0x20, 0x00, 0x00, 0x00, 0x0d, 0x00, 0x00, 0x00, 0x64, 0x65, 0x6e, 0x73, 0x65, 0x5f, 0x33, 0x5f, 0x69, 0x6e, 0x70, 0x75, 0x74, 0x00, 0x00, 0x00, 0x08, 0x00, 0x0c, 0x00, 0x04, 0x00, 0x08, 0x00, 0x08, 0x00, 0x00, 0x00, 0x10, 0x00, 0x00, 0x00, 0x04, 0x00, 0x00, 0x00, 0x01, 0x00, 0x00, 0x00, 0x00, 0x00, 0x7f, 0x43, 0x01, 0x00, 0x00, 0x00, 0x00, 0x00, 0x00, 0x00, 0xde, 0xe8, 0xff, 0xff, 0x10, 0x00, 0x00, 0x00, 0x08, 0x00, 0x00, 0x00, 0x14, 0x00, 0x00, 0x00, 0x4c, 0x00, 0x00, 0x00, 0x02, 0x00, 0x00, 0x00, 0x08, 0x00, 0x00, 0x00, 0x20, 0x00, 0x00, 0x00, 0x34, 0x00, 0x00, 0x00, 0x73, 0x65, 0x71, 0x75, 0x65, 0x6e, 0x74, 0x69, 0x61, 0x6c, 0x5f, 0x31, 0x2f, 0x64, 0x65, 0x6e, 0x73, 0x65, 0x5f, 0x34, 0x2f, 0x4d, 0x61, 0x74, 0x4d, 0x75, 0x6c, 0x2f, 0x52, 0x65, 0x61, 0x64, 0x56, 0x61, 0x72, 0x69, 0x61, 0x62, 0x6c, 0x65, 0x4f, 0x70, 0x2f, 0x74, 0x72, 0x61, 0x6e, 0x73, 0x70, 0x6f, 0x73, 0x65, 0x00, 0x00, 0x00, 0x00, 0x3c, 0xe8, 0xff, 0xff, 0x00, 0x04, 0x00, 0x00, 0x9a, 0xa0, 0x49, 0x3e, 0xcc, 0x22, 0xef, 0xbd, 0xe4, 0x55, 0xfe, 0xbd, 0x88, 0x09, 0xa6, 0x3e, 0xa0, 0x34, 0x96, 0x3e, 0x95, 0xb2, 0x4c, 0xbe, 0xaf, 0xe8, 0x0d, 0xbc, 0x9c, 0x9b, 0xb7, 0x3d, 0x34, 0x9a, 0x96, 0x3e, 0xc0, 0xc4, 0xb8, 0x3d, 0x6d, 0x57, 0xb5, 0xbe, 0x92, 0x6b, 0x7b, 0xbd, 0x46, 0x19, 0xa2, 0x3d, 0x73, 0xe1, 0x0e, 0x3c, 0x93, 0x8d, 0xe6, 0xbe, 0xec, 0x02, 0xb2, 0xbe, 0x94, 0x5b, 0x5e, 0x3e, 0x10, 0x45, 0xc4, 0x3e, 0x3b, 0x58, 0x17, 0xbe, 0xc0, 0x73, 0x59, 0xbd, 0x38, 0x9c, 0x40, 0x3b, 0x60, 0x82, 0xed, 0x3c, 0x75, 0x82, 0x81, 0xbe, 0xb9, 0x37, 0xb2, 0xbe, 0x83, 0x16, 0x21, 0x3e, 0xe8, 0x7f, 0x72, 0x3e, 0xa2, 0xec, 0x32, 0xba, 0x13, 0x99, 0x77, 0x3e, 0x75, 0xc2, 0x9e, 0x3e, 0xa4, 0x41, 0x27, 0x3e, 0x15, 0xe1, 0x87, 0xbe, 0x1a, 0xd0, 0xf1, 0x3d, 0x31, 0xa8, 0x06, 0xbd, 0xc8, 0xb2, 0x15, 0x3d, 0xd2, 0x60, 0x81, 0xbe, 0x44, 0x03, 0x9a, 0x3d, 0xdf, 0x3f, 0xa0, 0xbc, 0x86, 0xf4, 0x26, 0x3e, 0x63, 0xa8, 0x8a, 0x3e, 0xa0, 0xbf, 0x91, 0x3e, 0x0b, 0x47, 0xb3, 0x3e, 0x54, 0x47, 0xa4, 0x3d, 0x7c, 0x6b, 0x9a, 0x3e, 0x6e, 0x49, 0x82, 0x3e, 0xe4, 0x4c, 0x7c, 0x3e, 0xc6, 0x1f, 0x77, 0xbc, 0xc0, 0x77, 0xb2, 0x3e, 0x14, 0x7c, 0xa0, 0x3e, 0xfc, 0x0f, 0xab, 0x3e, 0x24, 0x21, 0xd6, 0x3d, 0x88, 0x7d, 0xdc, 0xbd, 0xa4, 0x9e, 0xa6, 0x3e, 0xb2, 0xb6, 0xfa, 0xbd, 0xb9, 0xb8, 0xb4, 0x3c, 0x7c, 0xb3, 0x95, 0x3e, 0x25, 0x14, 0x38, 0xbd, 0xaf, 0x9a, 0xab, 0xbd, 0x64, 0x42, 0xbd, 0x3e, 0x82, 0x14, 0xb0, 0x3e, 0x30, 0x53, 0xa0, 0xbe, 0x9d, 0x5e, 0xb2, 0x3e, 0x20, 0x40, 0x91, 0xbe, 0x3f, 0x8a, 0x19, 0xbe, 0xd0, 0xcb, 0x34, 0x3e, 0x39, 0x8f, 0x8a, 0x3e, 0xb8, 0x17, 0x3d, 0xbe, 0x18, 0x7d, 0x38, 0xbd, 0x60, 0x01, 0xb0, 0x3d, 0x4d, 0xa7, 0x9d, 0x3e, 0x5d, 0xfe, 0x9a, 0xbe, 0x3f, 0x7b, 0x5f, 0xbe, 0x55, 0x6d, 0x63, 0xbe, 0x20, 0x5a, 0x1a, 0x3e, 0xa0, 0xd7, 0xce, 0x3d, 0x56, 0x02, 0x39, 0x3e, 0xf8, 0xc3, 0x03, 0xbe, 0x2c, 0xaf, 0xc6, 0xbe, 0x04, 0xa2, 0x86, 0x3e, 0x28, 0xd4, 0x8f, 0xbe, 0xbf, 0x17, 0x4f, 0xbe, 0x54, 0x1c, 0xa5, 0x3e, 0x54, 0xcb, 0xa1, 0x3e, 0x00, 0xb5, 0x7e, 0xbe, 0xb2, 0xe8, 0xad, 0x3e, 0x19, 0xb0, 0x7a, 0x3e, 0x75, 0x9a, 0x86, 0x3d, 0x89, 0x7a, 0x7e, 0xbe, 0xb7, 0x0d, 0x21, 0xbd, 0x4a, 0xad, 0xce, 0xbd, 0x10, 0xc0, 0x58, 0x3e, 0x1c, 0xa8, 0x53, 0xbe, 0x85, 0x30, 0x9c, 0x3e, 0x8f, 0xb7, 0x1b, 0xbe, 0x4a, 0x83, 0x26, 0xbe, 0x31, 0xec, 0x82, 0x3d, 0x84, 0x3f, 0xd0, 0xbd, 0xfc, 0x6a, 0x6b, 0xbe, 0xb4, 0x87, 0x1c, 0x3e, 0x0c, 0xf7, 0x9e, 0x3e, 0x0c, 0x81, 0x7e, 0x3e, 0xc3, 0x8e, 0xf7, 0x3e, 0x57, 0xbe, 0x9a, 0xbe, 0x10, 0xfd, 0x92, 0xbe, 0xad, 0xeb, 0x74, 0x3e, 0xe2, 0xd1, 0x6d, 0x3d, 0x00, 0x2a, 0x87, 0x3c, 0x39, 0x09, 0x12, 0xbe, 0xd5, 0xb4, 0x59, 0xbe, 0x1d, 0x55, 0x9c, 0x3d, 0xb4, 0x7e, 0x89, 0xbe, 0x07, 0xcd, 0x0d, 0xbe, 0x73, 0xde, 0x74, 0xbe, 0xf8, 0x57, 0x3f, 0x3e, 0x2c, 0x98, 0x11, 0x3e, 0x33, 0x5b, 0x6e, 0xbd, 0xe0, 0xa7, 0xe1, 0x3c, 0x4a, 0x04, 0x56, 0x3e, 0xdc, 0xb3, 0x95, 0x3e, 0xb0, 0xbc, 0xb2, 0x3e, 0xb7, 0x87, 0xa0, 0xbe, 0xea, 0xb9, 0x2a, 0x3e, 0x80, 0x54, 0x84, 0x3d, 0xc1, 0x9b, 0x5a, 0x3e, 0xf2, 0xbc, 0x01, 0x3f, 0xd0, 0xf6, 0x19, 0x3e, 0xe0, 0x46, 0x1c, 0x3e, 0xaf, 0x4c, 0x8d, 0xbc, 0xc7, 0xd4, 0xad, 0x3d, 0x14, 0xf9, 0xab, 0x3d, 0x9c, 0xda, 0x96, 0xbe, 0x31, 0x8d, 0x8f, 0xbe, 0x20, 0xf2, 0x83, 0x3e, 0x46, 0x92, 0x28, 0xbe, 0x2b, 0xa8, 0xd9, 0x3e, 0x99, 0x3e, 0x02, 0xbe, 0x91, 0xf2, 0xa7, 0xbe, 0x90, 0x49, 0xb1, 0x3d, 0x40, 0xc2, 0x7c, 0x3e, 0x4c, 0x8a, 0xb3, 0x3e, 0x11, 0x50, 0xa8, 0x3e, 0xf9, 0xc8, 0x9e, 0x3d, 0xff, 0x53, 0x67, 0x3e, 0x15, 0xaf, 0x96, 0xbd, 0x00, 0x9e, 0x0d, 0x3f, 0xb0, 0xa2, 0x04, 0xbe, 0xe0, 0xcf, 0xfa, 0xbd, 0x8f, 0xed, 0xa8, 0x3e, 0xb5, 0xc9, 0x26, 0xbe, 0x22, 0xab, 0x34, 0xbe, 0x05, 0x88, 0xa5, 0xbe, 0xe4, 0xc0, 0x30, 0x3e, 0x2f, 0xc4, 0x44, 0xbe, 0xeb, 0x6a, 0x7f, 0xbe, 0xbc, 0x78, 0x4e, 0xbe, 0xc4, 0xed, 0x09, 0xbe, 0x8f, 0xf7, 0x1d, 0xbe, 0x8c, 0x6b, 0x07, 0x3e, 0x4c, 0x98, 0x6a, 0xbe, 0xde, 0x35, 0x13, 0x3e, 0x3d, 0x82, 0x32, 0x3e, 0x1c, 0xbb, 0x75, 0x3e, 0x50, 0x19, 0xdd, 0x3c, 0x50, 0xd7, 0x95, 0xbe, 0xce, 0x4c, 0x9b, 0x3e, 0x54, 0x9d, 0xa1, 0x3e, 0x47, 0xc4, 0xb1, 0xbe, 0xd2, 0x15, 0x19, 0x3e, 0x92, 0xec, 0x4f, 0x3e, 0x2e, 0x8f, 0x93, 0x3e, 0x69, 0x6f, 0x69, 0xbe, 0x7c, 0x95, 0xa4, 0x3d, 0x33, 0xfe, 0x82, 0xbe, 0xf4, 0xa3, 0x3d, 0xbe, 0x37, 0x7f, 0x3c, 0xbe, 0x28, 0xb1, 0x1d, 0xbe, 0x78, 0xd6, 0xce, 0xbd, 0xde, 0xe0, 0x9d, 0x3e, 0x40, 0x1e, 0xce, 0xbd, 0xa3, 0x9e, 0x92, 0xbe, 0xb0, 0x4c, 0xd0, 0x3d, 0x65, 0xd6, 0x89, 0xbd, 0x5e, 0x81, 0xad, 0x3e, 0xd8, 0x95, 0x99, 0x3d, 0xe3, 0xb1, 0x3e, 0x3d, 0x54, 0xc9, 0x7f, 0xbe, 0x04, 0x94, 0x84, 0x3d, 0xff, 0x17, 0x7d, 0xbe, 0x22, 0x5f, 0xbd, 0x3e, 0x9a, 0xba, 0xd2, 0xbb, 0xf3, 0x31, 0x93, 0xbe, 0xd0, 0xa2, 0x81, 0x3e, 0x5a, 0x17, 0x65, 0xbe, 0xc5, 0x97, 0x9e, 0x3e, 0x10, 0x74, 0x2a, 0x3e, 0x88, 0x61, 0x6f, 0x3d, 0xb3, 0xd5, 0xc0, 0xbe, 0x04, 0xeb, 0xa3, 0x3d, 0x86, 0xa9, 0x01, 0xbd, 0x01, 0xda, 0x75, 0xbe, 0xb4, 0x85, 0x5c, 0x3e, 0xa9, 0xa3, 0x83, 0xbe, 0x78, 0x8e, 0x75, 0xbe, 0x8b, 0xde, 0x89, 0xbc, 0x6f, 0xdb, 0x1e, 0xbe, 0x3b, 0xee, 0xe0, 0xbd, 0x35, 0x6b, 0x99, 0xbe, 0x1e, 0xcd, 0x3f, 0xbe, 0xfd, 0x08, 0x2f, 0x3e, 0xbc, 0xe4, 0xf9, 0xbd, 0x74, 0xd2, 0xb8, 0xbd, 0xa7, 0x33, 0x0c, 0xbe, 0x9c, 0x64, 0xa9, 0x3e, 0xa2, 0xa7, 0xab, 0xbb, 0x70, 0x3d, 0xc0, 0x3e, 0x10, 0xfe, 0xb1, 0x3c, 0x99, 0x15, 0x9b, 0xbe, 0x9e, 0xc7, 0x26, 0xbe, 0x70, 0xb0, 0x62, 0x3e, 0xc5, 0x7f, 0x55, 0x3d, 0x5f, 0xee, 0xa3, 0x3e, 0x2f, 0x67, 0x54, 0x3e, 0x14, 0xf7, 0x9d, 0x3d, 0x9a, 0x12, 0xcf, 0xbe, 0xd4, 0x65, 0xbb, 0xbe, 0xf0, 0xf5, 0x44, 0x3e, 0xc8, 0xba, 0x94, 0x3e, 0xba, 0x2e, 0xaf, 0x3e, 0x00, 0x7a, 0xc3, 0xba, 0x53, 0xe6, 0x7b, 0x3d, 0xfb, 0xf8, 0x6d, 0x3e, 0x97, 0x86, 0x81, 0x3e, 0x5d, 0xf5, 0xa3, 0xbe, 0x0c, 0xbc, 0x95, 0xbe, 0x75, 0x33, 0x8c, 0xbe, 0xdc, 0xa1, 0x43, 0xbe, 0x3c, 0x6e, 0x98, 0xbd, 0xac, 0x41, 0x88, 0x3d, 0x95, 0xff, 0xdc, 0xba, 0x17, 0xd0, 0x89, 0xbe, 0x73, 0x14, 0xe6, 0xbe, 0x48, 0x4e, 0x71, 0x3d, 0xa8, 0x22, 0xb7, 0x3e, 0x3a, 0x51, 0x3e, 0xbe, 0xd8, 0x7e, 0x3c, 0x3d, 0xce, 0xb9, 0x40, 0x3e, 0x2a, 0x09, 0xf0, 0xbd, 0x92, 0xbf, 0xaa, 0xbe, 0x9c, 0x29, 0x24, 0xbe, 0x05, 0x0b, 0xac, 0xbe, 0x18, 0x90, 0x48, 0xbe, 0x07, 0xd4, 0xa5, 0x3c, 0x63, 0xcc, 0x9a, 0x3e, 0x93, 0xcd, 0xa1, 0xbd, 0x92, 0xbf, 0x67, 0xbe, 0x2e, 0x29, 0x6f, 0x3e, 0xb5, 0xee, 0x92, 0xbe, 0x42, 0xed, 0xff, 0xff, 0x10, 0x00, 0x00, 0x00, 0x07, 0x00, 0x00, 0x00, 0x10, 0x00, 0x00, 0x00, 0x34, 0x00, 0x00, 0x00, 0x01, 0x00, 0x00, 0x00, 0x20, 0x00, 0x00, 0x00, 0x20, 0x00, 0x00, 0x00, 0x73, 0x65, 0x71, 0x75, 0x65, 0x6e, 0x74, 0x69, 0x61, 0x6c, 0x5f, 0x31, 0x2f, 0x64, 0x65, 0x6e, 0x73, 0x65, 0x5f, 0x33, 0x2f, 0x4d, 0x61, 0x74, 0x4d, 0x75, 0x6c, 0x5f, 0x62, 0x69, 0x61, 0x73, 0x00, 0x00, 0x00, 0x00, 0x88, 0xec, 0xff, 0xff, 0x80, 0x00, 0x00, 0x00, 0x8c, 0x36, 0x0b, 0xbe, 0x00, 0x00, 0x00, 0x00, 0x00, 0x00, 0x00, 0x00, 0x00, 0x00, 0x00, 0x00, 0x9b, 0xe3, 0xa5, 0xbd, 0x9c, 0x51, 0x36, 0xbd, 0x49, 0xab, 0x3a, 0xbc, 0x48, 0x4c, 0xd1, 0xbd, 0x9f, 0x50, 0xf2, 0xbb, 0x00, 0x00, 0x00, 0x00, 0x1a, 0x41, 0x7e, 0x3a, 0x40, 0xec, 0xa9, 0x3d, 0x95, 0x8e, 0x0e, 0xbd, 0x2b, 0xbd, 0x1f, 0x3c, 0xcf, 0x07, 0xc4, 0x3d, 0x0c, 0xfd, 0x16, 0x3d, 0x00, 0x00, 0x00, 0x00, 0x00, 0x00, 0x00, 0x00, 0x5f, 0x8e, 0xef, 0x3c, 0x00, 0x00, 0x00, 0x00, 0xdb, 0x9e, 0x12, 0xbe, 0x97, 0xb2, 0x84, 0xbd, 0x00, 0x00, 0x00, 0x00, 0xc8, 0x51, 0x0c, 0xbc, 0xcd, 0x78, 0x19, 0x3d, 0x00, 0x00, 0x00, 0x00, 0xce, 0xd2, 0x2e, 0xbd, 0x8f, 0x72, 0xb8, 0xbc, 0xc4, 0x20, 0x76, 0xbd, 0x00, 0x00, 0x00, 0x00, 0xee, 0xb5, 0x52, 0xbd, 0x17, 0x52, 0x26, 0x3c, 0x0e, 0xee, 0xff, 0xff, 0x10, 0x00, 0x00, 0x00, 0x06, 0x00, 0x00, 0x00, 0x14, 0x00, 0x00, 0x00, 0x34, 0x00, 0x00, 0x00, 0x02, 0x00, 0x00, 0x00, 0x01, 0x00, 0x00, 0x00, 0x02, 0x00, 0x00, 0x00, 0x1c, 0x00, 0x00, 0x00, 0x73, 0x65, 0x71, 0x75, 0x65, 0x6e, 0x74, 0x69, 0x61, 0x6c, 0x5f, 0x31, 0x2f, 0x64, 0x65, 0x6e, 0x73, 0x65, 0x5f, 0x35, 0x2f, 0x42, 0x69, 0x61, 0x73, 0x41, 0x64, 0x64, 0x00, 0x00, 0x00, 0x00, 0x54, 0xed, 0xff, 0xff, 0x56, 0xee, 0xff, 0xff, 0x10, 0x00, 0x00, 0x00, 0x05, 0x00, 0x00, 0x00, 0x14, 0x00, 0x00, 0x00, 0x20, 0x00, 0x00, 0x00, 0x02, 0x00, 0x00, 0x00, 0x01, 0x00, 0x00, 0x00, 0x02, 0x00, 0x00, 0x00, 0x08, 0x00, 0x00, 0x00, 0x49, 0x64, 0x65, 0x6e, 0x74, 0x69, 0x74, 0x79, 0x00, 0x00, 0x00, 0x00, 0x88, 0xed, 0xff, 0xff, 0x8a, 0xee, 0xff, 0xff, 0x10, 0x00, 0x00, 0x00, 0x04, 0x00, 0x00, 0x00, 0x14, 0x00, 0x00, 0x00, 0x4c, 0x00, 0x00, 0x00, 0x02, 0x00, 0x00, 0x00, 0x20, 0x00, 0x00, 0x00, 0x20, 0x00, 0x00, 0x00, 0x34, 0x00, 0x00, 0x00, 0x73, 0x65, 0x71, 0x75, 0x65, 0x6e, 0x74, 0x69, 0x61, 0x6c, 0x5f, 0x31, 0x2f, 0x64, 0x65, 0x6e, 0x73, 0x65, 0x5f, 0x33, 0x2f, 0x4d, 0x61, 0x74, 0x4d, 0x75, 0x6c, 0x2f, 0x52, 0x65, 0x61, 0x64, 0x56, 0x61, 0x72, 0x69, 0x61, 0x62, 0x6c, 0x65, 0x4f, 0x70, 0x2f, 0x74, 0x72, 0x61, 0x6e, 0x73, 0x70, 0x6f, 0x73, 0x65, 0x00, 0x00, 0x00, 0x00, 0xe8, 0xed, 0xff, 0xff, 0x00, 0x10, 0x00, 0x00, 0xcc, 0xeb, 0x0a, 0xbd, 0xdf, 0x97, 0x87, 0x3d, 0x72, 0x45, 0x03, 0xbe, 0xde, 0x83, 0x0f, 0x3e, 0x2b, 0xf9, 0xf6, 0x3d, 0xf2, 0xf2, 0x24, 0xbe, 0x78, 0x1e, 0xb5, 0xbe, 0x01, 0x6e, 0x95, 0x3e, 0x44, 0x2b, 0x28, 0x3e, 0x90, 0x32, 0x9d, 0x3e, 0x1e, 0x76, 0xe8, 0xbd, 0x6b, 0xa9, 0x93, 0x3d, 0xe2, 0x4a, 0x87, 0xbe, 0x11, 0x3b, 0x52, 0x3e, 0xb1, 0x2f, 0x29, 0x3e, 0xdf, 0xf2, 0x25, 0x3d, 0xac, 0x6d, 0xc8, 0xbe, 0x23, 0x19, 0x2e, 0xbe, 0xaa, 0x81, 0x62, 0x3d, 0x08, 0x57, 0xea, 0x3d, 0x26, 0xc6, 0xac, 0xbe, 0x34, 0x1e, 0xc4, 0x3c, 0x6e, 0x81, 0x97, 0xbe, 0x41, 0x99, 0x98, 0xbe, 0x64, 0xff, 0xe6, 0xbd, 0x09, 0xcc, 0x04, 0xbe, 0x69, 0x3a, 0x9d, 0xbc, 0x1a, 0x81, 0xb8, 0xbe, 0x02, 0x6b, 0x16, 0x3c, 0x17, 0xc4, 0x01, 0x3e, 0x8f, 0x23, 0xed, 0xbc, 0x73, 0x60, 0x68, 0xbe, 0xa8, 0xf8, 0x13, 0xbd, 0x10, 0x22, 0x84, 0x3c, 0x92, 0xe4, 0x46, 0xbe, 0xc4, 0xda, 0x7d, 0xbe, 0x08, 0x32, 0x6d, 0xbe, 0x3f, 0xb1, 0x7e, 0xbe, 0xeb, 0x24, 0x65, 0xbe, 0xa0, 0x9c, 0x91, 0xbe, 0x48, 0xc1, 0x2d, 0x3e, 0x64, 0xeb, 0xa2, 0xbd, 0x60, 0x25, 0x19, 0x3d, 0x61, 0xb5, 0x8f, 0x3e, 0x62, 0xd7, 0xba, 0xbd, 0x0e, 0x01, 0x81, 0xbd, 0x80, 0xf5, 0xfb, 0x3d, 0x80, 0x7d, 0xa4, 0x3c, 0x98, 0xd7, 0x18, 0x3e, 0x9e, 0x7d, 0x52, 0x3e, 0x81, 0xe8, 0x64, 0xbe, 0x03, 0xb6, 0x85, 0xbe, 0x7c, 0x29, 0x76, 0xbd, 0x28, 0xce, 0x24, 0x3d, 0xd0, 0xf2, 0xdd, 0xbc, 0xc0, 0x72, 0xe6, 0xbb, 0x18, 0x0b, 0x85, 0xbe, 0x34, 0x42, 0x6e, 0xbd, 0x33, 0x47, 0x94, 0xbe, 0xe4, 0xbc, 0x85, 0xbe, 0x43, 0x9c, 0x32, 0xbe, 0xac, 0xbb, 0x74, 0xbd, 0xc8, 0x27, 0xc1, 0x3d, 0xde, 0x46, 0xa4, 0xbd, 0x7a, 0x81, 0xb8, 0xbd, 0x00, 0x6f, 0x64, 0xbb, 0x5c, 0xe3, 0x66, 0xbe, 0x50, 0xbf, 0x81, 0xbe, 0xb2, 0xa5, 0x64, 0xbe, 0x08, 0xbe, 0x21, 0xbd, 0x0d, 0x1a, 0x86, 0xbe, 0x68, 0x04, 0x1e, 0x3e, 0xec, 0x76, 0xc1, 0x3d, 0x4e, 0xb1, 0x18, 0x3e, 0xd2, 0x76, 0x40, 0xbe, 0x04, 0xd5, 0xe1, 0xbd, 0xb2, 0x07, 0xc8, 0xbd, 0xce, 0x0c, 0x4a, 0xbe, 0x2a, 0xfd, 0x83, 0xbe, 0x38, 0x62, 0x34, 0x3e, 0xfc, 0xc3, 0x67, 0xbe, 0xac, 0x06, 0xec, 0x3d, 0x10, 0xcf, 0xcc, 0xbd, 0x40, 0x1d, 0xd4, 0x3d, 0x60, 0xb7, 0x8e, 0xbc, 0xfe, 0x34, 0xd2, 0xbd, 0x34, 0x18, 0x3e, 0x3e, 0x40, 0xea, 0xcd, 0x3c, 0x18, 0xf3, 0x12, 0xbe, 0xd8, 0x37, 0x29, 0x3d, 0x1a, 0x4b, 0xbd, 0xbd, 0x44, 0xd6, 0x30, 0xbe, 0x8f, 0x0f, 0x96, 0x3e, 0x3d, 0x04, 0x58, 0xbe, 0x86, 0xdd, 0xfd, 0xbd, 0xcd, 0xb5, 0x16, 0xbe, 0xe0, 0x2c, 0xb2, 0xbc, 0xd5, 0x01, 0x32, 0xbe, 0xac, 0x8e, 0xb7, 0x3d, 0x0c, 0x7f, 0x9c, 0x3d, 0xf1, 0x92, 0x19, 0xbe, 0x80, 0x2c, 0x69, 0x3c, 0xd0, 0x26, 0xaa, 0xbc, 0x2e, 0x37, 0x8d, 0xbe, 0x00, 0x0e, 0xb3, 0x3b, 0xa4, 0x9f, 0x8b, 0x3d, 0xb4, 0x64, 0x1e, 0xbe, 0x07, 0xd5, 0x91, 0xbe, 0xb1, 0xe8, 0x0d, 0xbe, 0x30, 0xba, 0xbd, 0x3c, 0xa8, 0x94, 0x42, 0x3e, 0x31, 0x6f, 0x93, 0x3e, 0x5c, 0x1b, 0x9d, 0x3d, 0x16, 0x40, 0x70, 0x3e, 0x72, 0xa0, 0x18, 0xbe, 0xa0, 0xa1, 0xe0, 0x3c, 0x83, 0x02, 0x81, 0x3e, 0x2e, 0xae, 0x70, 0x3e, 0x56, 0xd5, 0x51, 0x3e, 0x60, 0x29, 0x0b, 0x3d, 0xf0, 0x86, 0x49, 0x3d, 0xb4, 0x36, 0x98, 0xbe, 0x8e, 0x1c, 0xd4, 0xbd, 0x68, 0x52, 0x44, 0xbd, 0x1e, 0x7d, 0x9a, 0xbe, 0xcd, 0x84, 0x7b, 0xbe, 0xc8, 0xa4, 0x31, 0xbd, 0xbd, 0x53, 0x92, 0x3e, 0xbb, 0x42, 0xb7, 0xbe, 0xbb, 0x1d, 0x38, 0x3e, 0xa8, 0x88, 0x62, 0x3e, 0x6a, 0x90, 0x0e, 0xbe, 0x30, 0x71, 0x49, 0xbd, 0xe1, 0x11, 0x92, 0x3d, 0x63, 0x64, 0x73, 0xbe, 0xc3, 0x76, 0xcc, 0xbd, 0x44, 0x99, 0x83, 0x3d, 0x2f, 0xf1, 0xc9, 0x3e, 0x5a, 0x62, 0xa1, 0x3e, 0x15, 0x51, 0x42, 0x3e, 0x4c, 0xbe, 0xb0, 0x3e, 0xea, 0xb2, 0x9d, 0xbd, 0x87, 0x5c, 0x9b, 0xbd, 0x91, 0xb8, 0xe3, 0xbd, 0x00, 0x58, 0x40, 0x3e, 0x50, 0x1c, 0x3c, 0x3d, 0x25, 0x00, 0x22, 0xbe, 0xc2, 0x98, 0x40, 0xbe, 0x5d, 0xe8, 0x97, 0xbe, 0x87, 0x76, 0x29, 0x3e, 0x85, 0x08, 0xb5, 0xbd, 0xfc, 0xae, 0xce, 0xbd, 0xd2, 0x83, 0x95, 0xbd, 0xaf, 0x54, 0x33, 0xbe, 0xf3, 0x17, 0x96, 0xbe, 0xc6, 0x7f, 0x32, 0x3e, 0xc3, 0x57, 0x6e, 0x3d, 0x7d, 0x73, 0xb5, 0xbd, 0x03, 0xad, 0x9f, 0xbe, 0x45, 0xdd, 0x9b, 0xbe, 0xc4, 0x71, 0x7c, 0x3d, 0x6c, 0x3f, 0x2c, 0x3e, 0x7e, 0xf2, 0x3d, 0x3d, 0x6e, 0x4a, 0x46, 0xbd, 0xb8, 0xc1, 0xa0, 0x3d, 0xc5, 0x1f, 0x24, 0x3e, 0x23, 0x78, 0xa7, 0x3d, 0xc8, 0x21, 0x71, 0xbe, 0x53, 0x26, 0x76, 0xbe, 0x01, 0x9f, 0x06, 0xbd, 0xc5, 0x77, 0xb7, 0x3d, 0x8b, 0xa4, 0x83, 0xbe, 0x11, 0x25, 0xb0, 0xbe, 0xa7, 0x1b, 0xba, 0xbd, 0x3f, 0x83, 0xf0, 0xbd, 0x79, 0x7d, 0x11, 0x3e, 0xee, 0xb5, 0x4a, 0xbc, 0x54, 0x3e, 0x19, 0xbd, 0xa2, 0x6f, 0xa1, 0xb8, 0x71, 0xf1, 0x62, 0xbe, 0x9b, 0x91, 0x69, 0xba, 0xe7, 0xce, 0x07, 0x3c, 0x0e, 0x7e, 0x8e, 0xbc, 0x2b, 0xea, 0x14, 0xbe, 0x1f, 0x56, 0x0c, 0xbe, 0xe3, 0x41, 0x36, 0xbe, 0x98, 0x0c, 0x9f, 0xbe, 0x8c, 0x03, 0x61, 0x3e, 0x79, 0x99, 0x86, 0x3d, 0x90, 0x60, 0x83, 0xbe, 0xe2, 0xae, 0xe3, 0x3d, 0x77, 0xaf, 0x06, 0xbd, 0x99, 0xd6, 0x0a, 0x3e, 0x4b, 0xde, 0x03, 0xbe, 0x7b, 0x43, 0x04, 0xbe, 0xf5, 0xa3, 0x82, 0x3d, 0xbf, 0x62, 0xec, 0xba, 0x26, 0x6e, 0x30, 0xbe, 0xfd, 0x1c, 0x88, 0x3d, 0xf3, 0x29, 0x88, 0x3d, 0xe6, 0x5f, 0x02, 0x3d, 0xd1, 0xf2, 0xc1, 0xbc, 0x2a, 0x79, 0x87, 0x3e, 0x0f, 0x58, 0x91, 0xbe, 0xf7, 0xe1, 0xdf, 0xbc, 0xa6, 0xaa, 0x12, 0x3e, 0xeb, 0x55, 0x38, 0xbe, 0xd0, 0xad, 0x6d, 0xbe, 0xed, 0x4a, 0x10, 0x3d, 0xc0, 0x80, 0x51, 0xbd, 0x9d, 0xcf, 0xb4, 0xbd, 0x37, 0x2d, 0x3e, 0x3e, 0xa8, 0x4e, 0x3d, 0x3e, 0xde, 0x97, 0x66, 0x3e, 0xa9, 0xaf, 0x24, 0x3c, 0x15, 0x91, 0x8e, 0x3e, 0xef, 0xda, 0x28, 0x3e, 0xb7, 0xe1, 0x88, 0x3e, 0xc6, 0x94, 0xdc, 0x3d, 0x2c, 0xc2, 0x52, 0x3d, 0x70, 0x40, 0x8a, 0xbe, 0x1f, 0x34, 0x2a, 0xbe, 0x41, 0xa2, 0x11, 0xbd, 0xdf, 0x9b, 0xa2, 0xbe, 0x4e, 0x79, 0xfe, 0x3d, 0xda, 0x40, 0x0d, 0x3c, 0x2b, 0x93, 0x3b, 0xbe, 0xba, 0xb3, 0xaf, 0x3d, 0x36, 0x3d, 0x86, 0xbd, 0xe9, 0x50, 0xec, 0x3d, 0xb2, 0x9d, 0xf6, 0xbd, 0xd4, 0xf5, 0xd4, 0x3d, 0x31, 0x2b, 0xa1, 0xbe, 0xdc, 0x6b, 0xa7, 0x3d, 0x35, 0x40, 0x1c, 0xbe, 0x58, 0x4d, 0x0d, 0x3e, 0xca, 0x8a, 0xad, 0xbb, 0xaa, 0xc7, 0x26, 0xbe, 0x41, 0x6d, 0x36, 0x3e, 0xa2, 0x41, 0x30, 0x3e, 0x80, 0x39, 0x90, 0xbe, 0xc4, 0xdb, 0xc5, 0x3c, 0x0d, 0x36, 0xba, 0xbe, 0xca, 0xc8, 0x57, 0xbd, 0xa1, 0x91, 0x48, 0xbe, 0xd9, 0xca, 0xd5, 0xbd, 0xfa, 0x16, 0x45, 0xbe, 0x4d, 0x11, 0xa6, 0x3d, 0x90, 0xfa, 0xce, 0xbd, 0x80, 0x36, 0x54, 0xbe, 0x17, 0xb3, 0x3e, 0xbe, 0x8c, 0x22, 0xa6, 0xbd, 0xd1, 0xf2, 0x52, 0x3d, 0x58, 0xfa, 0x6a, 0xbe, 0x51, 0x1b, 0x86, 0xbc, 0x0e, 0x57, 0xab, 0xbe, 0xdf, 0x33, 0x33, 0xbe, 0x90, 0xde, 0x2b, 0xbe, 0x6c, 0x7f, 0x23, 0xbd, 0x61, 0x87, 0x58, 0xbe, 0x88, 0xa8, 0x38, 0x3d, 0x2f, 0x98, 0x47, 0xbe, 0x58, 0x97, 0x3e, 0x3e, 0xed, 0xb0, 0x4f, 0x3e, 0x84, 0xe8, 0x6f, 0x3e, 0x7a, 0xb4, 0x7b, 0x3d, 0x75, 0x55, 0x0e, 0xbe, 0x93, 0xd4, 0x8e, 0xbc, 0x48, 0xb8, 0x5e, 0xbe, 0x7c, 0x26, 0x6e, 0x3e, 0x97, 0xb6, 0x81, 0x3d, 0x82, 0x68, 0x2a, 0xbe, 0x00, 0xd0, 0xae, 0xbc, 0x99, 0xbe, 0x8b, 0x3e, 0xda, 0x4c, 0x88, 0x3e, 0x8e, 0x1c, 0x41, 0xbe, 0x1f, 0xb8, 0x08, 0xbb, 0xad, 0x22, 0x67, 0xbd, 0xaa, 0x74, 0x94, 0xbe, 0xa0, 0x84, 0x0e, 0xbd, 0xbf, 0xed, 0xd6, 0xbd, 0x46, 0x1f, 0xe5, 0x3d, 0xd9, 0xe6, 0x8a, 0xbe, 0x85, 0x23, 0x8b, 0xbe, 0x32, 0x79, 0x4c, 0x3e, 0x2f, 0xfa, 0x93, 0xbe, 0x86, 0x73, 0x67, 0xbd, 0x47, 0x51, 0x7e, 0xbe, 0x24, 0x93, 0x2d, 0xbe, 0xe4, 0xa8, 0x30, 0x3e, 0x7c, 0x68, 0x46, 0xbe, 0x24, 0x03, 0x2f, 0xbe, 0x9c, 0x4c, 0x24, 0xbe, 0x7a, 0x98, 0x21, 0x3e, 0x09, 0x3a, 0x97, 0x3e, 0x28, 0x2d, 0x74, 0x3d, 0x78, 0x0f, 0x20, 0xbe, 0x78, 0x23, 0xe9, 0xbd, 0xc0, 0x6b, 0xed, 0xbb, 0x70, 0xe1, 0x3d, 0xbe, 0x80, 0x8a, 0x3f, 0xbc, 0x40, 0x85, 0xb8, 0xbb, 0x88, 0xa0, 0xae, 0x3d, 0xd4, 0x83, 0x34, 0xbe, 0x01, 0xd9, 0x9a, 0x3e, 0x75, 0x8e, 0x7c, 0xbe, 0x1a, 0xf1, 0x78, 0xbe, 0xae, 0xb1, 0x84, 0xbd, 0x46, 0x09, 0x6d, 0x3e, 0x70, 0xac, 0x2d, 0x3e, 0xe0, 0xb1, 0x15, 0xbd, 0xf5, 0x2f, 0x91, 0x3e, 0xea, 0xad, 0x40, 0xbe, 0x1d, 0x0b, 0x21, 0xbe, 0x9b, 0x7f, 0x9a, 0x3e, 0x4b, 0x71, 0x33, 0xbe, 0x48, 0x3f, 0xa3, 0xbd, 0x3a, 0xa4, 0x36, 0x3e, 0xbe, 0x50, 0xaf, 0xbd, 0xd0, 0xc6, 0x7b, 0x3d, 0x55, 0xc7, 0x03, 0xbe, 0x74, 0x20, 0x70, 0x3e, 0x19, 0x22, 0x47, 0xbc, 0x5b, 0xac, 0x6f, 0x3d, 0xf2, 0x7c, 0x5f, 0x3e, 0x10, 0x06, 0x96, 0xbe, 0xf2, 0x47, 0xf6, 0x3d, 0x5d, 0xc1, 0x58, 0xbe, 0x0a, 0x1a, 0x97, 0xbd, 0xb2, 0xe3, 0x74, 0x3d, 0x94, 0xbb, 0x99, 0xbe, 0x73, 0xbd, 0x23, 0xbe, 0x9b, 0xa5, 0x9d, 0x3d, 0x0e, 0xa5, 0x9d, 0x3d, 0x06, 0x9c, 0xc1, 0xbe, 0xfd, 0x1c, 0x03, 0xbd, 0x50, 0x3e, 0x0b, 0x3e, 0xb9, 0xb2, 0x5f, 0x3e, 0x62, 0x7e, 0xe4, 0x3d, 0x7b, 0x89, 0xfa, 0xbd, 0x1a, 0x13, 0x48, 0xbe, 0x9a, 0x22, 0x98, 0x3e, 0xbd, 0x88, 0xb7, 0x3d, 0x98, 0x9e, 0x5e, 0x3e, 0x2c, 0x0b, 0x5b, 0x3e, 0x48, 0x1b, 0x16, 0xbe, 0xd7, 0x61, 0xf1, 0x3c, 0x43, 0x6d, 0x8c, 0xbe, 0x3b, 0xbe, 0xbb, 0xbd, 0xec, 0xed, 0xa2, 0x3d, 0x17, 0x2f, 0x92, 0xbc, 0x79, 0xcc, 0x91, 0xbd, 0x42, 0x6f, 0x51, 0x3e, 0xa1, 0x07, 0x86, 0xbe, 0xec, 0x94, 0x28, 0x3e, 0xd7, 0x80, 0x50, 0xbe, 0xde, 0xdc, 0x81, 0x3e, 0x05, 0x22, 0x2b, 0x3e, 0x30, 0x6c, 0xfa, 0xba, 0xa5, 0x10, 0xf4, 0x3d, 0xd7, 0xae, 0xa2, 0xbd, 0xb9, 0x26, 0xbf, 0xbe, 0x71, 0x74, 0xd2, 0xbd, 0xf6, 0xa2, 0x1d, 0x3e, 0xb8, 0xcb, 0xb0, 0x3d, 0xf6, 0xd7, 0xb2, 0xbe, 0xf7, 0x63, 0x01, 0xbe, 0xbb, 0x68, 0xef, 0xbd, 0x4a, 0xf8, 0xfd, 0xbd, 0x2e, 0x82, 0x76, 0x3e, 0xad, 0x04, 0xbc, 0x3c, 0xfe, 0xd4, 0x79, 0x3e, 0x24, 0xf7, 0xb6, 0xbd, 0x6a, 0x94, 0x95, 0xbc, 0x7a, 0x94, 0xba, 0x3e, 0xe6, 0x26, 0x32, 0x3d, 0x65, 0xbf, 0xac, 0x3d, 0x39, 0x00, 0xf6, 0xbd, 0x64, 0x63, 0xe8, 0xbd, 0xa6, 0xf8, 0x52, 0xbe, 0x16, 0xf1, 0xad, 0x3e, 0x78, 0xbf, 0x0a, 0xbd, 0x37, 0x0f, 0xb9, 0xbc, 0x21, 0x69, 0x12, 0xbc, 0xdb, 0x69, 0x88, 0xbe, 0xfb, 0xc6, 0xfa, 0x3d, 0xad, 0xcf, 0x43, 0x3e, 0xf2, 0x49, 0x55, 0x3e, 0x07, 0xd9, 0xb9, 0x3d, 0xc8, 0x9e, 0x48, 0xbe, 0x32, 0x07, 0x2e, 0x3d, 0x71, 0x3e, 0xc0, 0xbe, 0xcf, 0xcb, 0xf8, 0xbd, 0xc9, 0x49, 0x4a, 0xbd, 0xab, 0x51, 0xf3, 0x3d, 0xce, 0x88, 0xa3, 0xbd, 0x72, 0x31, 0xa5, 0x3d, 0xbc, 0x9c, 0x06, 0x3c, 0xc0, 0x8b, 0xf4, 0x3d, 0xc8, 0x51, 0x3a, 0xbe, 0x9c, 0x59, 0x6b, 0xbe, 0x0c, 0x48, 0x5b, 0x3c, 0x92, 0xac, 0xa5, 0xbe, 0xdd, 0x01, 0x17, 0x3e, 0x2b, 0xfa, 0xb6, 0xbd, 0xa6, 0x5c, 0x38, 0xbe, 0x74, 0x72, 0x96, 0x3b, 0x02, 0xf4, 0x72, 0xbe, 0xf1, 0x40, 0x86, 0x3e, 0x98, 0x09, 0xe5, 0x3b, 0x51, 0xa6, 0xaa, 0xbe, 0x3e, 0xab, 0x98, 0xbd, 0xdd, 0x80, 0x6e, 0x3e, 0x93, 0xdc, 0x9e, 0xbe, 0x0e, 0x91, 0x02, 0x3e, 0x48, 0xd6, 0x50, 0x3e, 0xa4, 0xee, 0x06, 0x3d, 0x19, 0xf7, 0x91, 0x3d, 0x68, 0x52, 0xfd, 0xbd, 0xf8, 0xcc, 0x86, 0x3e, 0x63, 0x42, 0x2f, 0x3b, 0xd9, 0x1f, 0x6e, 0xbe, 0x02, 0xc1, 0x39, 0x3e, 0x81, 0x87, 0xcd, 0x3c, 0xd2, 0x71, 0xff, 0x3c, 0x1f, 0x5f, 0x61, 0xbe, 0x36, 0xc3, 0xb7, 0xbd, 0xe2, 0x5e, 0x95, 0xbe, 0x53, 0x13, 0x31, 0xbd, 0x30, 0xc4, 0x93, 0x3d, 0x36, 0xc5, 0x96, 0xbe, 0x27, 0xed, 0x30, 0xbd, 0x74, 0x77, 0x80, 0xbe, 0x52, 0xba, 0x92, 0xbe, 0xab, 0x97, 0x50, 0xbe, 0x4f, 0x89, 0xc4, 0x3c, 0xd9, 0xf8, 0x9a, 0x3d, 0xce, 0x1f, 0x18, 0x3e, 0x50, 0xf1, 0xa3, 0xbd, 0x58, 0x66, 0x12, 0x3d, 0x40, 0xd3, 0x17, 0xbe, 0x77, 0x8d, 0x37, 0xbc, 0x1e, 0x26, 0x66, 0x3e, 0x21, 0xf7, 0x6a, 0xbe, 0xef, 0xc6, 0x92, 0xbd, 0x0f, 0x39, 0x27, 0x3e, 0xb4, 0x79, 0x91, 0xbe, 0x08, 0xb2, 0x1f, 0xbd, 0xf4, 0x81, 0x09, 0x3e, 0xde, 0x00, 0xc8, 0x3d, 0x83, 0x68, 0x13, 0x3e, 0x31, 0xdb, 0x0c, 0x3e, 0x3b, 0x8e, 0xd9, 0xbd, 0xdb, 0x1b, 0x51, 0x3d, 0xfd, 0x68, 0x1b, 0xbe, 0x45, 0x08, 0x93, 0xbd, 0xd2, 0x0e, 0x7d, 0x3d, 0x05, 0xa5, 0xb3, 0xbe, 0x4f, 0x11, 0x5e, 0xbe, 0x08, 0x0d, 0x63, 0xbe, 0x7b, 0xaf, 0x2c, 0x3e, 0xa3, 0x72, 0xc8, 0xbe, 0x8c, 0x95, 0xe0, 0xbd, 0xf0, 0xb7, 0x66, 0x3d, 0xb0, 0x1c, 0x3a, 0xbd, 0xc9, 0x01, 0xe0, 0x3d, 0xdf, 0xeb, 0x46, 0x3e, 0x4a, 0xf4, 0xcc, 0x3d, 0x2b, 0x5f, 0xa0, 0x3e, 0x88, 0x64, 0xa9, 0xbd, 0x58, 0x16, 0xa7, 0x3e, 0x6e, 0x19, 0x4d, 0xbc, 0x1b, 0x46, 0xc7, 0x3e, 0x5a, 0x33, 0xab, 0xbc, 0x4f, 0x1b, 0x11, 0xbe, 0x3b, 0x57, 0xe6, 0x3c, 0x01, 0x7f, 0x88, 0x3e, 0xcd, 0x3e, 0x50, 0x3e, 0x91, 0xe7, 0xb1, 0x3e, 0xe7, 0x8e, 0x6e, 0x3d, 0xcd, 0x2a, 0x8e, 0x3e, 0x17, 0x71, 0x33, 0xbe, 0xa3, 0xec, 0xa2, 0x3e, 0x27, 0x0b, 0x98, 0x3c, 0x22, 0xc5, 0x88, 0xbe, 0x49, 0x85, 0xec, 0x3d, 0xa7, 0x82, 0x18, 0xbd, 0xe7, 0x8b, 0xf7, 0x3b, 0x36, 0xb5, 0x5b, 0xbe, 0x2d, 0x56, 0xa9, 0x3d, 0x7d, 0xc2, 0xf0, 0xbd, 0x41, 0x3e, 0x9e, 0xbe, 0x6b, 0x99, 0x81, 0x3e, 0x92, 0x2a, 0x99, 0xbe, 0x39, 0xf0, 0x9a, 0x3d, 0x54, 0xe4, 0x8b, 0x3e, 0xcb, 0xa0, 0x93, 0x3b, 0x65, 0x21, 0x4b, 0xbd, 0xbe, 0x4c, 0x82, 0x3e, 0x4f, 0xf9, 0x9c, 0x3c, 0xc9, 0x5d, 0x6b, 0x3e, 0xaf, 0xef, 0xd5, 0xbd, 0xe3, 0xdb, 0x52, 0x3e, 0x33, 0xd0, 0x4b, 0x3e, 0xbd, 0x8f, 0xe8, 0x3d, 0x98, 0xaa, 0x2f, 0xbe, 0x6b, 0x0f, 0xca, 0xbd, 0x4b, 0x41, 0x55, 0x3e, 0x58, 0x5e, 0x7d, 0xbe, 0x30, 0xfa, 0x87, 0x3d, 0x50, 0x03, 0x3c, 0xbe, 0x6a, 0xe2, 0xa5, 0x3e, 0xd7, 0xcc, 0x99, 0xbe, 0x82, 0x4e, 0x15, 0x3e, 0xd3, 0x40, 0x73, 0xbe, 0x36, 0x0c, 0x5f, 0xbe, 0xa4, 0xd8, 0xb6, 0x3d, 0x1c, 0xde, 0x80, 0x3d, 0x16, 0x61, 0x73, 0x3e, 0x0c, 0xab, 0xc5, 0x3d, 0x08, 0x2d, 0x18, 0x3e, 0xa2, 0x45, 0x99, 0xbe, 0xd0, 0x1b, 0x45, 0x3e, 0xb8, 0x80, 0x56, 0xbe, 0xf0, 0xe2, 0x10, 0xbd, 0x73, 0xe8, 0x91, 0x3e, 0xe2, 0x5f, 0x2e, 0x3e, 0x9a, 0xbe, 0xdb, 0xbd, 0xe2, 0xe4, 0x22, 0x3e, 0x3a, 0x8f, 0x3f, 0x3e, 0x1b, 0xf9, 0x81, 0x3e, 0x40, 0xd9, 0xf1, 0xbb, 0x38, 0xb7, 0x9e, 0x3d, 0x0e, 0x8e, 0x82, 0xbe, 0x35, 0x0b, 0x2e, 0xbe, 0x1e, 0xd8, 0x37, 0x3e, 0x56, 0xeb, 0x2e, 0x3e, 0xfa, 0xd4, 0x65, 0xbe, 0x10, 0xaf, 0xc0, 0xbc, 0xb7, 0x48, 0x0a, 0xbe, 0x8e, 0xb8, 0x40, 0x3e, 0x78, 0x93, 0x9e, 0xbd, 0x10, 0x41, 0x42, 0x3e, 0xc0, 0xa9, 0x16, 0xbd, 0x80, 0x02, 0x55, 0x3c, 0x34, 0x11, 0xe1, 0xbd, 0x88, 0xf6, 0xff, 0xbd, 0x40, 0x38, 0xda, 0xbd, 0xd8, 0x5e, 0x15, 0x3d, 0x46, 0x2d, 0x87, 0xbe, 0x8c, 0xe4, 0x8b, 0xbe, 0x2c, 0x98, 0xc7, 0x3d, 0x60, 0x23, 0x7b, 0xbd, 0x08, 0xdd, 0xc4, 0xbd, 0xe8, 0xad, 0x4b, 0xbd, 0x36, 0x1b, 0x6e, 0xbe, 0x22, 0xfe, 0x44, 0x3e, 0x54, 0x4e, 0xba, 0x3d, 0xc8, 0xeb, 0x50, 0xbd, 0xac, 0xb0, 0xd0, 0xbd, 0x2d, 0xa5, 0x58, 0xbe, 0x84, 0x6e, 0xc6, 0x3d, 0xc3, 0xda, 0x5e, 0xbe, 0x10, 0x94, 0xd3, 0x3c, 0x8e, 0xf0, 0x69, 0x3e, 0x90, 0xa3, 0x9b, 0x3c, 0xa0, 0x2f, 0x68, 0x3c, 0x3e, 0x9d, 0x79, 0x3e, 0x2c, 0x02, 0x6a, 0xbd, 0x42, 0x2b, 0x07, 0x3e, 0x94, 0x52, 0xde, 0x3d, 0x8a, 0xaa, 0x6b, 0x3e, 0xba, 0x3f, 0xfe, 0xbd, 0x20, 0xa0, 0x4f, 0x3c, 0x50, 0x41, 0x17, 0xbd, 0x9e, 0x6b, 0xc7, 0xbd, 0xbe, 0x28, 0xda, 0x3d, 0x34, 0xa2, 0x92, 0x3d, 0x95, 0xd0, 0x90, 0x3e, 0x68, 0x2a, 0x8f, 0x3e, 0xa8, 0xc1, 0x04, 0xbe, 0x7a, 0x0f, 0x72, 0xbe, 0x18, 0x38, 0x5f, 0x3e, 0x96, 0xbf, 0x98, 0xbe, 0xf9, 0x9e, 0x0c, 0x3d, 0x20, 0x2f, 0xbb, 0xbc, 0x7f, 0x13, 0x2d, 0xbe, 0xb6, 0x90, 0xb0, 0xbe, 0x11, 0xdd, 0x5d, 0x3c, 0xe9, 0xf8, 0xa3, 0xbe, 0x99, 0x6a, 0x99, 0xbd, 0x83, 0xab, 0xf4, 0xbd, 0xc9, 0xa5, 0xc0, 0x3d, 0xb8, 0xe3, 0x1d, 0x3e, 0x40, 0x03, 0xa2, 0x3e, 0x4b, 0x77, 0x1f, 0x3e, 0x4c, 0x60, 0x0d, 0xbe, 0x81, 0x77, 0x41, 0x3e, 0xcf, 0x39, 0xc4, 0xbd, 0xe9, 0x49, 0xf0, 0x3d, 0xba, 0x0e, 0x33, 0x3e, 0xbb, 0x39, 0x86, 0x3c, 0x93, 0x4d, 0x4a, 0x3d, 0x42, 0x45, 0xf4, 0xbd, 0x3c, 0x56, 0x70, 0x3e, 0xa0, 0xee, 0xb4, 0xbc, 0xbc, 0x1e, 0x88, 0x3e, 0xfb, 0x79, 0x96, 0x3d, 0xc2, 0x8a, 0x3c, 0xbe, 0xe0, 0x66, 0xae, 0xbc, 0x9e, 0x6d, 0x65, 0xbe, 0x8c, 0xe7, 0x2c, 0x3e, 0xd2, 0x8f, 0x60, 0x3e, 0xec, 0x74, 0x72, 0xbd, 0x54, 0x44, 0x17, 0xbe, 0x9a, 0x28, 0x2e, 0x3e, 0x38, 0x8b, 0x55, 0xbe, 0x83, 0x6f, 0x2f, 0xbe, 0x15, 0x37, 0x82, 0x3e, 0x74, 0x78, 0x97, 0x3d, 0x6a, 0x2b, 0x7d, 0xbe, 0x80, 0x70, 0x52, 0x3c, 0xff, 0x45, 0x66, 0xbe, 0x10, 0x50, 0x0a, 0x3e, 0x62, 0x05, 0x28, 0x3e, 0x07, 0xc7, 0x6d, 0xbe, 0x17, 0x24, 0x27, 0xbe, 0x4c, 0x8b, 0xe5, 0xbd, 0xc8, 0x05, 0x00, 0x3d, 0x78, 0x03, 0xd2, 0x3d, 0x37, 0x84, 0x5b, 0xbe, 0xac, 0x53, 0x0d, 0x3e, 0xc2, 0xc8, 0x66, 0xbe, 0x86, 0x9f, 0x62, 0x3e, 0x60, 0x67, 0x3d, 0xbc, 0x9a, 0x3e, 0x7d, 0x3e, 0x11, 0xbf, 0x91, 0x3e, 0xbe, 0xec, 0xd2, 0xbd, 0x6b, 0xf2, 0x9b, 0xbe, 0xc1, 0x18, 0x2e, 0xbe, 0xb8, 0xca, 0x78, 0x3c, 0x56, 0x21, 0x74, 0x3e, 0xd4, 0x52, 0x57, 0xbe, 0xbe, 0xed, 0xeb, 0xbc, 0x55, 0x6f, 0x3a, 0x3e, 0x35, 0xf1, 0x54, 0x3c, 0x25, 0x05, 0xa3, 0xbd, 0xce, 0x42, 0x15, 0x3e, 0xf5, 0xb7, 0x7a, 0x3d, 0xcd, 0x12, 0x32, 0xbe, 0x51, 0x6e, 0x66, 0x3e, 0xad, 0xf4, 0x49, 0xbe, 0xc8, 0x75, 0xa2, 0x3e, 0x30, 0x48, 0xa5, 0x3d, 0x32, 0x23, 0x56, 0x3e, 0x62, 0xdc, 0x02, 0x3d, 0x87, 0x5c, 0x11, 0x3e, 0xc3, 0x80, 0xb5, 0x3b, 0xec, 0x12, 0xbe, 0x3d, 0x13, 0x74, 0x47, 0xbc, 0x5b, 0xd3, 0x97, 0xbe, 0x3d, 0x67, 0xe6, 0xbd, 0xeb, 0x49, 0x0c, 0x3e, 0x0d, 0xf5, 0x3e, 0xbe, 0xa5, 0x3d, 0xb8, 0xbe, 0xc6, 0xba, 0xb4, 0xbd, 0xad, 0xdb, 0x25, 0x3b, 0x4e, 0x72, 0xfc, 0x3d, 0x52, 0xa8, 0xbe, 0xbe, 0xdf, 0x8e, 0x39, 0xbd, 0x8e, 0x97, 0x8f, 0xbd, 0x1b, 0x10, 0xbe, 0xbe, 0x01, 0xc7, 0x02, 0xbd, 0x2d, 0x91, 0xc8, 0x3d, 0x51, 0x2d, 0x48, 0xbe, 0x3f, 0x33, 0xff, 0x3c, 0x4e, 0xc1, 0x58, 0x3e, 0x35, 0xcb, 0x88, 0xbe, 0xa9, 0xe2, 0x6d, 0x3e, 0xfc, 0xb4, 0x91, 0xbd, 0xdb, 0xa8, 0x4b, 0x3e, 0xcd, 0x25, 0x22, 0x3e, 0xe9, 0x34, 0x9b, 0x3e, 0x05, 0x73, 0xc9, 0xbc, 0x7c, 0xbe, 0x81, 0xbd, 0x9b, 0x9d, 0x75, 0x3e, 0xb2, 0xa0, 0x69, 0xbe, 0x77, 0xe4, 0x66, 0x3e, 0x48, 0x58, 0x35, 0xbe, 0xb7, 0xba, 0x87, 0xbd, 0x52, 0x01, 0xfc, 0xbc, 0x30, 0x4d, 0x6c, 0x3e, 0x30, 0x99, 0x75, 0x3e, 0x3e, 0xda, 0xc7, 0x3b, 0x39, 0x83, 0xa3, 0xbe, 0xc5, 0x21, 0x5c, 0xbe, 0xf2, 0xe0, 0x63, 0xbe, 0xb8, 0x92, 0xba, 0xbc, 0xc0, 0xff, 0x16, 0xbe, 0x3c, 0xf3, 0xd0, 0xbd, 0xdf, 0x18, 0xc2, 0xbd, 0x74, 0x91, 0x2d, 0xbc, 0x3c, 0x30, 0x65, 0x3d, 0x9d, 0xcd, 0x46, 0xbe, 0x6a, 0x15, 0x76, 0xbe, 0x7c, 0x64, 0xdd, 0xbd, 0x18, 0xe5, 0x92, 0xbe, 0xce, 0x14, 0xb7, 0xbd, 0x32, 0x87, 0x4b, 0x3e, 0x92, 0xee, 0xec, 0xbd, 0xea, 0x75, 0x7f, 0xbe, 0xc0, 0xd6, 0x60, 0xbc, 0x25, 0xb3, 0x3d, 0xbe, 0xa2, 0xf9, 0x02, 0xbe, 0x00, 0x6e, 0xcf, 0x3b, 0xc2, 0x43, 0x86, 0xbe, 0xae, 0x4e, 0x2c, 0xbe, 0xb3, 0xb6, 0x83, 0x3e, 0xc2, 0x02, 0x09, 0x3e, 0x9b, 0x88, 0x41, 0xbe, 0x14, 0x10, 0x42, 0x3e, 0x67, 0x78, 0x04, 0xbe, 0x7a, 0xf2, 0xe8, 0xbd, 0x40, 0xd4, 0xa1, 0x3c, 0x82, 0xe0, 0x89, 0xbe, 0xfc, 0x8c, 0x89, 0x3d, 0x50, 0xb9, 0xcb, 0xbd, 0x04, 0x54, 0x3f, 0x3e, 0x00, 0x32, 0xf9, 0x3b, 0xd2, 0x77, 0x8b, 0xbe, 0x10, 0x6a, 0x51, 0x3d, 0x06, 0x81, 0x39, 0x3e, 0x86, 0x50, 0x4b, 0x3e, 0x00, 0x57, 0x77, 0xbc, 0xa6, 0xae, 0xb5, 0xbd, 0x68, 0xf7, 0x1e, 0x3e, 0xde, 0x6a, 0xbe, 0x3d, 0x0f, 0xd7, 0x1d, 0x3e, 0x12, 0xbf, 0x60, 0x3e, 0x4a, 0x8d, 0x8c, 0xbd, 0x21, 0xbd, 0x99, 0xbe, 0xd3, 0x7c, 0xd8, 0xbd, 0x2d, 0xdf, 0x0c, 0x3e, 0xe7, 0x9c, 0x98, 0x3d, 0x2b, 0x8c, 0x55, 0xbe, 0x5b, 0x48, 0x21, 0x3e, 0x49, 0x69, 0xdf, 0xbd, 0xc7, 0xa5, 0xba, 0xbe, 0x71, 0x49, 0x89, 0xbe, 0x3c, 0x75, 0xce, 0xbe, 0xec, 0x51, 0xa0, 0xbe, 0x07, 0x1c, 0x4c, 0xbe, 0xf4, 0xe4, 0xdf, 0x3d, 0x01, 0x83, 0x8e, 0x3d, 0xd4, 0x81, 0x31, 0xbe, 0x4e, 0x37, 0x90, 0xbe, 0xa0, 0x6f, 0x26, 0xbd, 0xee, 0xa9, 0xaa, 0x3d, 0xe7, 0x96, 0x24, 0xbe, 0xd8, 0x0c, 0x8c, 0x3e, 0xb3, 0x7f, 0x70, 0x3e, 0xf0, 0xc7, 0xba, 0x3d, 0x05, 0x1a, 0x93, 0x3e, 0xcd, 0x42, 0xaf, 0x3d, 0x0a, 0xa6, 0x87, 0x3e, 0x3c, 0xf5, 0x06, 0xbe, 0xfc, 0xea, 0xc2, 0xbd, 0x29, 0xce, 0x25, 0x3e, 0x98, 0xbd, 0x06, 0x3e, 0x1d, 0xd3, 0xe3, 0x3c, 0xba, 0x19, 0xf2, 0x3d, 0x72, 0xa1, 0x4f, 0xbe, 0x30, 0xab, 0x95, 0x3e, 0x8d, 0x4d, 0x44, 0x3e, 0x10, 0xe9, 0x7a, 0xbe, 0xd0, 0x2f, 0x7d, 0x3e, 0xbf, 0xff, 0x18, 0xbe, 0x17, 0x57, 0x91, 0xbe, 0x2e, 0x6f, 0x72, 0x3d, 0x92, 0x31, 0x54, 0x3e, 0x3a, 0x20, 0x43, 0xbe, 0x39, 0x79, 0xa3, 0xbe, 0x1c, 0xca, 0xd7, 0xbd, 0xb5, 0x6f, 0xce, 0xbc, 0x47, 0xde, 0x0c, 0x3e, 0xdf, 0xf4, 0xa5, 0x3d, 0xb3, 0xfc, 0x64, 0xbe, 0xe4, 0xc1, 0x9f, 0x3e, 0xbb, 0x36, 0x70, 0xbe, 0x44, 0x19, 0xb3, 0x3d, 0x77, 0xb0, 0xa5, 0xbd, 0x86, 0xd5, 0x6f, 0x3e, 0x96, 0x97, 0xd6, 0xbd, 0xa8, 0xe3, 0xa7, 0xbd, 0x78, 0x86, 0x9b, 0x3e, 0x4d, 0x5c, 0x89, 0x3e, 0x06, 0x03, 0x84, 0x3e, 0x97, 0x42, 0x35, 0x3e, 0x21, 0xe9, 0x8c, 0x3e, 0x95, 0xcd, 0xdd, 0xbd, 0xa0, 0x7c, 0xcc, 0xbd, 0xca, 0x5b, 0x3f, 0xbe, 0xe0, 0x24, 0x4e, 0x3d, 0x96, 0x06, 0x61, 0xbe, 0x2e, 0x16, 0x55, 0x3e, 0x12, 0x9f, 0x9a, 0xbd, 0xf5, 0x71, 0x57, 0xbe, 0x38, 0xcd, 0x53, 0xbe, 0x58, 0x93, 0x7e, 0x3d, 0x60, 0xa4, 0x95, 0x3d, 0x79, 0x4c, 0x2d, 0xbe, 0xde, 0x87, 0x0a, 0xbe, 0xf8, 0xb7, 0x41, 0x3e, 0x37, 0x7b, 0x1f, 0xbe, 0x42, 0x72, 0x80, 0xbd, 0x60, 0xce, 0x97, 0xbc, 0xb2, 0x07, 0x18, 0x3e, 0xc0, 0xc6, 0x89, 0xbe, 0x2f, 0x6f, 0x91, 0xbe, 0xa0, 0x91, 0xc7, 0xbc, 0x26, 0x8b, 0x54, 0xbe, 0x52, 0xf7, 0x55, 0x3e, 0x09, 0x71, 0x68, 0xbe, 0xd2, 0xf4, 0x33, 0x3e, 0xb8, 0xb5, 0x6e, 0xbd, 0x30, 0xf2, 0x3b, 0x3d, 0x40, 0x2c, 0x6b, 0xbe, 0x10, 0xc8, 0x3e, 0x3d, 0x68, 0xcc, 0x2a, 0xbe, 0xa0, 0xee, 0xc4, 0xbc, 0x5b, 0xb1, 0x83, 0x3e, 0x16, 0x1a, 0x1a, 0xbe, 0x2b, 0x67, 0xa4, 0x3c, 0xa6, 0x0b, 0xef, 0x3d, 0x0b, 0xe8, 0x60, 0xbe, 0xe9, 0xea, 0x6d, 0xbe, 0x73, 0x7f, 0x1c, 0xbe, 0x69, 0xc0, 0x47, 0xbe, 0x9b, 0x9b, 0x12, 0x3e, 0x03, 0x52, 0x64, 0x3c, 0x40, 0x02, 0x47, 0x3e, 0x51, 0x85, 0x82, 0x3e, 0x94, 0x17, 0xe9, 0xbd, 0x44, 0x88, 0x86, 0x3e, 0xe4, 0x51, 0x36, 0xbe, 0xc2, 0x6f, 0x49, 0x3e, 0x73, 0xcf, 0xd2, 0x3c, 0x68, 0x04, 0xd0, 0x3c, 0x1d, 0x1f, 0x46, 0x3d, 0xb4, 0xbe, 0x19, 0xbd, 0xcc, 0xe6, 0x80, 0x3e, 0x8b, 0x8f, 0x2f, 0xbe, 0x2b, 0x23, 0x84, 0xbe, 0x85, 0x88, 0x05, 0xbe, 0xe7, 0x39, 0x48, 0x3d, 0x55, 0xc9, 0x7b, 0xbe, 0xbb, 0xa8, 0x40, 0xbe, 0x89, 0x6d, 0x44, 0x3d, 0x39, 0x26, 0xea, 0x3d, 0x31, 0xe7, 0x50, 0xbe, 0xb9, 0x99, 0x7a, 0xbe, 0x99, 0xb2, 0x27, 0x3d, 0xe4, 0x75, 0x10, 0x3e, 0x4c, 0x14, 0x47, 0x3e, 0x67, 0x2a, 0x41, 0xbe, 0x25, 0x4d, 0xa0, 0xbd, 0xbc, 0x60, 0x06, 0x3e, 0xc8, 0x32, 0xdf, 0x3d, 0x2a, 0xf8, 0x5a, 0xbe, 0xee, 0x6b, 0x8c, 0xbe, 0x62, 0x3c, 0x93, 0x3e, 0x9f, 0x58, 0x59, 0x3c, 0x36, 0x22, 0x95, 0x3e, 0xd0, 0xf9, 0xb9, 0x3e, 0xa7, 0x00, 0x60, 0xbe, 0x27, 0xb0, 0x64, 0x3e, 0xd2, 0x8a, 0x7b, 0x3d, 0xa4, 0xa2, 0x44, 0xbd, 0x39, 0xdb, 0x4b, 0x3e, 0x79, 0x74, 0xf4, 0xbd, 0xfe, 0x5a, 0x84, 0xbe, 0xc4, 0x87, 0x9b, 0x3e, 0x53, 0x7d, 0x9b, 0x3d, 0x04, 0x6a, 0x93, 0xbe, 0x1d, 0x6b, 0x96, 0xbe, 0x9d, 0xc3, 0x93, 0x3e, 0xe6, 0x7d, 0xca, 0x3d, 0x56, 0x7f, 0x88, 0xbe, 0xc7, 0x63, 0xe6, 0x3d, 0x6e, 0x79, 0x52, 0x3e, 0x58, 0x6b, 0x14, 0xbe, 0xab, 0x57, 0x89, 0x3e, 0xb6, 0xf0, 0x7c, 0xbe, 0x56, 0xc8, 0x52, 0x3d, 0x4f, 0xa2, 0xb6, 0x3d, 0x6e, 0xe4, 0x58, 0x3e, 0x25, 0x80, 0x1d, 0x3e, 0xba, 0x89, 0x48, 0xbe, 0x1a, 0xf8, 0x16, 0xbe, 0x4d, 0x47, 0x93, 0x3d, 0xbf, 0x00, 0xe5, 0x3d, 0x45, 0xaf, 0x0f, 0xbd, 0x35, 0xdd, 0x5a, 0xbd, 0x9d, 0x0e, 0x6d, 0xbe, 0x52, 0x32, 0x4d, 0x3e, 0x7a, 0x12, 0x31, 0x3e, 0x4f, 0xea, 0x02, 0x3e, 0x22, 0xb8, 0x53, 0xbd, 0xd7, 0x4b, 0x59, 0x3d, 0xe2, 0x19, 0xa6, 0xbe, 0x0f, 0x94, 0x1c, 0xbe, 0xd7, 0xd0, 0x5d, 0xbe, 0x59, 0x02, 0x0f, 0xbe, 0x36, 0x8b, 0x46, 0xbe, 0xe3, 0x7b, 0x36, 0xbd, 0x45, 0xf0, 0x50, 0x3d, 0x5f, 0x36, 0x68, 0x3e, 0xa8, 0x49, 0x47, 0xbe, 0x2f, 0x34, 0x45, 0xbe, 0x79, 0x4d, 0xab, 0xbe, 0x1f, 0x12, 0x37, 0x3e, 0x1b, 0x44, 0x8e, 0x3c, 0x8f, 0x80, 0x0d, 0xbe, 0x56, 0xd3, 0x62, 0x3d, 0x9c, 0x72, 0x62, 0xbd, 0x95, 0xb0, 0x19, 0xbe, 0x87, 0xa2, 0xb3, 0xbd, 0x76, 0xa7, 0x2c, 0xbe, 0xe8, 0xef, 0x14, 0xbd, 0x70, 0xd8, 0xe7, 0xbd, 0x56, 0x1f, 0x8e, 0xbe, 0x7d, 0x82, 0x1d, 0xbe, 0x54, 0x53, 0x20, 0x3e, 0xa8, 0x03, 0x49, 0xbd, 0xa6, 0x1b, 0x97, 0xbd, 0xe0, 0x08, 0x6d, 0x3c, 0x38, 0xeb, 0xb7, 0x3d, 0xc0, 0x8f, 0x9b, 0xbe, 0xe0, 0x24, 0xf8, 0xbd, 0x2f, 0x9a, 0x90, 0xbe, 0x87, 0xb9, 0x08, 0xbe, 0xe1, 0xa6, 0x58, 0xbe, 0x9a, 0x57, 0xde, 0xbd, 0xf6, 0x3e, 0x92, 0xbd, 0xac, 0xb7, 0x5b, 0xbe, 0x8c, 0xfd, 0x11, 0x3e, 0xd7, 0x6c, 0x9c, 0x3e, 0x52, 0x59, 0x95, 0xbe, 0x00, 0x3a, 0x18, 0xbd, 0xd2, 0x61, 0x4f, 0x3e, 0x6a, 0xc1, 0xa3, 0xbd, 0xd1, 0x44, 0x96, 0xbe, 0x9b, 0xcd, 0x48, 0xbe, 0xe0, 0x3f, 0x87, 0xbc, 0x40, 0xf8, 0xe1, 0x3c, 0x20, 0xcc, 0x05, 0xbc, 0x78, 0x2d, 0x46, 0x3e, 0x00, 0x71, 0x88, 0xbd, 0x58, 0x58, 0x43, 0xbe, 0x86, 0x7f, 0x40, 0x3e, 0x80, 0x87, 0x64, 0x3e, 0x64, 0x78, 0x8d, 0x3c, 0x0e, 0x77, 0x85, 0xbe, 0x95, 0x98, 0x1a, 0x3c, 0x9b, 0x91, 0x7d, 0xbe, 0x8e, 0xe0, 0x13, 0x3e, 0x6d, 0x58, 0x38, 0xbd, 0x97, 0xf9, 0x3e, 0x3e, 0x79, 0x51, 0x5e, 0x3e, 0x69, 0x59, 0x13, 0xbe, 0x25, 0xc1, 0x96, 0xbe, 0xe1, 0xe6, 0x51, 0xbe, 0xdf, 0xb1, 0x4c, 0xbe, 0x22, 0x36, 0x4e, 0xbe, 0x01, 0x0d, 0xc4, 0xbd, 0x83, 0x50, 0x20, 0x3e, 0x3a, 0x18, 0xe6, 0xbd, 0xde, 0x45, 0x96, 0xbd, 0x2e, 0x6b, 0x1c, 0xbc, 0xc2, 0x17, 0x0c, 0x3e, 0xaf, 0xb6, 0x35, 0xbe, 0x55, 0xbf, 0x2e, 0x3e, 0x84, 0x34, 0x0d, 0xbd, 0x51, 0x84, 0x10, 0xbe, 0x0f, 0x9f, 0x83, 0xbd, 0xd0, 0x7d, 0xef, 0xbd, 0xa0, 0x63, 0xd6, 0x3d, 0xa3, 0x78, 0x6f, 0x3e, 0x9c, 0xf3, 0x15, 0x3e, 0x76, 0x44, 0x60, 0xbe, 0x8a, 0x4c, 0x25, 0x3e, 0xde, 0x94, 0xa2, 0xbe, 0x29, 0xef, 0x24, 0xbe, 0xba, 0x92, 0xe0, 0x3d, 0x82, 0x21, 0x43, 0x3e, 0x58, 0xf0, 0x48, 0xbc, 0x41, 0x15, 0x70, 0x3e, 0x77, 0x27, 0x21, 0xbe, 0x51, 0x9d, 0x6e, 0xbe, 0x03, 0x21, 0x69, 0x3d, 0xf1, 0x88, 0x33, 0xbe, 0x3e, 0x75, 0x0f, 0xbe, 0x40, 0xfb, 0xb4, 0xbb, 0x4e, 0x1f, 0x08, 0xbe, 0xa8, 0x6f, 0xb6, 0xbe, 0x1e, 0x52, 0x99, 0x3d, 0xae, 0x37, 0x2a, 0x3e, 0xc4, 0xca, 0xed, 0x3c, 0xcc, 0xe4, 0x32, 0xbe, 0xc3, 0xc6, 0xf6, 0xbd, 0xeb, 0x0f, 0x20, 0xbe, 0x56, 0x28, 0x27, 0x3d, 0x67, 0xd7, 0x99, 0x3e, 0xde, 0xe6, 0x8e, 0x3e, 0x12, 0x26, 0x25, 0xbe, 0xb6, 0xe0, 0x35, 0xbe, 0x77, 0x15, 0xe1, 0xbc, 0x2d, 0x4a, 0x5e, 0xbd, 0x8f, 0xb1, 0x1b, 0xbe, 0x06, 0xd7, 0x9e, 0x3c, 0xcb, 0xe4, 0x49, 0xbe, 0x7b, 0x3a, 0x2e, 0x3d, 0xdc, 0x4b, 0x4e, 0x3c, 0x07, 0x79, 0x63, 0xbe, 0xee, 0xfe, 0xff, 0xff, 0x10, 0x00, 0x00, 0x00, 0x03, 0x00, 0x00, 0x00, 0x10, 0x00, 0x00, 0x00, 0x34, 0x00, 0x00, 0x00, 0x01, 0x00, 0x00, 0x00, 0x08, 0x00, 0x00, 0x00, 0x20, 0x00, 0x00, 0x00, 0x73, 0x65, 0x71, 0x75, 0x65, 0x6e, 0x74, 0x69, 0x61, 0x6c, 0x5f, 0x31, 0x2f, 0x64, 0x65, 0x6e, 0x73, 0x65, 0x5f, 0x34, 0x2f, 0x4d, 0x61, 0x74, 0x4d, 0x75, 0x6c, 0x5f, 0x62, 0x69, 0x61, 0x73, 0x00, 0x00, 0x00, 0x00, 0x34, 0xfe, 0xff, 0xff, 0x20, 0x00, 0x00, 0x00, 0xad, 0x1b, 0x8b, 0x3d, 0x8f, 0x1d, 0xdd, 0xbc, 0x7d, 0xa6, 0x21, 0xbd, 0x94, 0xfd, 0x57, 0x3d, 0x93, 0x66, 0xb7, 0xbb, 0x00, 0x97, 0xae, 0xbd, 0x3d, 0xdb, 0x93, 0xbd, 0xdf, 0x44, 0xc5, 0xbd, 0x5a, 0xff, 0xff, 0xff, 0x10, 0x00, 0x00, 0x00, 0x02, 0x00, 0x00, 0x00, 0x14, 0x00, 0x00, 0x00, 0x4c, 0x00, 0x00, 0x00, 0x02, 0x00, 0x00, 0x00, 0x02, 0x00, 0x00, 0x00, 0x08, 0x00, 0x00, 0x00, 0x34, 0x00, 0x00, 0x00, 0x73, 0x65, 0x71, 0x75, 0x65, 0x6e, 0x74, 0x69, 0x61, 0x6c, 0x5f, 0x31, 0x2f, 0x64, 0x65, 0x6e, 0x73, 0x65, 0x5f, 0x35, 0x2f, 0x4d, 0x61, 0x74, 0x4d, 0x75, 0x6c, 0x2f, 0x52, 0x65, 0x61, 0x64, 0x56, 0x61, 0x72, 0x69, 0x61, 0x62, 0x6c, 0x65, 0x4f, 0x70, 0x2f, 0x74, 0x72, 0x61, 0x6e, 0x73, 0x70, 0x6f, 0x73, 0x65, 0x00, 0x00, 0x00, 0x00, 0xb8, 0xfe, 0xff, 0xff, 0x40, 0x00, 0x00, 0x00, 0x30, 0xb1, 0xbe, 0x3e, 0x53, 0x64, 0x36, 0xbf, 0x8b, 0x89, 0xbd, 0x3b, 0x02, 0x5c, 0x1e, 0xbf, 0xcc, 0x9d, 0x9d, 0xbe, 0xc8, 0xdb, 0x84, 0x3e, 0x5a, 0xcc, 0x1e, 0x3f, 0x8f, 0x03, 0x7c, 0x3e, 0x21, 0x70, 0x4d, 0x3e, 0x6c, 0x6e, 0x8e, 0xbe, 0x7f, 0xf9, 0x36, 0xbe, 0xca, 0xb8, 0x48, 0xbf, 0x7e, 0x94, 0x88, 0xbd, 0x40, 0xe7, 0x1e, 0xbf, 0xe7, 0xcd, 0xcd, 0xbe, 0x96, 0x40, 0x9a, 0x3a, 0x00, 0x00, 0x0e, 0x00, 0x14, 0x00, 0x04, 0x00, 0x00, 0x00, 0x08, 0x00, 0x0c, 0x00, 0x10, 0x00, 0x0e, 0x00, 0x00, 0x00, 0x10, 0x00, 0x00, 0x00, 0x01, 0x00, 0x00, 0x00, 0x10, 0x00, 0x00, 0x00, 0x34, 0x00, 0x00, 0x00, 0x01, 0x00, 0x00, 0x00, 0x02, 0x00, 0x00, 0x00, 0x20, 0x00, 0x00, 0x00, 0x73, 0x65, 0x71, 0x75, 0x65, 0x6e, 0x74, 0x69, 0x61, 0x6c, 0x5f, 0x31, 0x2f, 0x64, 0x65, 0x6e, 0x73, 0x65, 0x5f, 0x35, 0x2f, 0x4d, 0x61, 0x74, 0x4d, 0x75, 0x6c, 0x5f, 0x62, 0x69, 0x61, 0x73, 0x00, 0x00, 0x00, 0x00, 0x54, 0xff, 0xff, 0xff, 0x08, 0x00, 0x00, 0x00, 0x24, 0x4c, 0xc5, 0xbf, 0x24, 0x4c, 0xc5, 0x3f, 0x04, 0x00, 0x00, 0x00, 0xf0, 0x00, 0x00, 0x00, 0x9c, 0x00, 0x00, 0x00, 0x5c, 0x00, 0x00, 0x00, 0x18, 0x00, 0x00, 0x00, 0x14, 0x00, 0x1c, 0x00, 0x08, 0x00, 0x0c, 0x00, 0x10, 0x00, 0x07, 0x00, 0x14, 0x00, 0x00, 0x00, 0x00, 0x00, 0x18, 0x00, 0x14, 0x00, 0x00, 0x00, 0x00, 0x00, 0x00, 0x09, 0x01, 0x00, 0x00, 0x00, 0x10, 0x00, 0x00, 0x00, 0x14, 0x00, 0x00, 0x00, 0x24, 0x00, 0x00, 0x00, 0x14, 0x00, 0x00, 0x00, 0x01, 0x00, 0x00, 0x00, 0x08, 0x00, 0x00, 0x00, 0x01, 0x00, 0x00, 0x00, 0x00, 0x00, 0x00, 0x00, 0x00, 0x00, 0x00, 0x00, 0x00, 0x00, 0x06, 0x00, 0x08, 0x00, 0x04, 0x00, 0x06, 0x00, 0x00, 0x00, 0x00, 0x00, 0x80, 0x3f, 0x88, 0xff, 0xff, 0xff, 0x00, 0x00, 0x00, 0x08, 0x10, 0x00, 0x00, 0x00, 0x1c, 0x00, 0x00, 0x00, 0x28, 0x00, 0x00, 0x00, 0x1c, 0x00, 0x00, 0x00, 0x03, 0x00, 0x00, 0x00, 0x07, 0x00, 0x00, 0x00, 0x09, 0x00, 0x00, 0x00, 0x0a, 0x00, 0x00, 0x00, 0x01, 0x00, 0x00, 0x00, 0x08, 0x00, 0x00, 0x00, 0x00, 0x00, 0x00, 0x00, 0x04, 0x00, 0x04, 0x00, 0x04, 0x00, 0x00, 0x00, 0xc4, 0xff, 0xff, 0xff, 0x00, 0x00, 0x00, 0x08, 0x10, 0x00, 0x00, 0x00, 0x1c, 0x00, 0x00, 0x00, 0x24, 0x00, 0x00, 0x00, 0x1c, 0x00, 0x00, 0x00, 0x03, 0x00, 0x00, 0x00, 0x04, 0x00, 0x00, 0x00, 0x05, 0x00, 0x00, 0x00, 0x06, 0x00, 0x00, 0x00, 0x01, 0x00, 0x00, 0x00, 0x07, 0x00, 0x00, 0x00, 0x00, 0x00, 0x00, 0x00, 0x82, 0xff, 0xff, 0xff, 0x00, 0x00, 0x00, 0x01, 0x14, 0x00, 0x18, 0x00, 0x00, 0x00, 0x08, 0x00, 0x0c, 0x00, 0x07, 0x00, 0x10, 0x00, 0x00, 0x00, 0x00, 0x00, 0x14, 0x00, 0x14, 0x00, 0x00, 0x00, 0x00, 0x00, 0x00, 0x08, 0x10, 0x00, 0x00, 0x00, 0x1c, 0x00, 0x00, 0x00, 0x24, 0x00, 0x00, 0x00, 0x1c, 0x00, 0x00, 0x00, 0x03, 0x00, 0x00, 0x00, 0x01, 0x00, 0x00, 0x00, 0x02, 0x00, 0x00, 0x00, 0x03, 0x00, 0x00, 0x00, 0x01, 0x00, 0x00, 0x00, 0x04, 0x00, 0x00, 0x00, 0x00, 0x00, 0x00, 0x00, 0xd2, 0xff, 0xff, 0xff, 0x00, 0x00, 0x00, 0x01, 0x02, 0x00, 0x00, 0x00, 0x10, 0x00, 0x00, 0x00, 0x04, 0x00, 0x00, 0x00, 0xe6, 0xff, 0xff, 0xff, 0x00, 0x00, 0x00, 0x19, 0xfa, 0xff, 0xff, 0xff, 0x00, 0x09, 0x06, 0x00, 0x06, 0x00, 0x05, 0x00, 0x06, 0x00, 0x00, 0x00, 0x00, 0x09, 0x06, 0x00, 0x08, 0x00, 0x07, 0x00, 0x06, 0x00, 0x00, 0x00, 0x00, 0x00, 0x00, 0x09};
const int model_data_len = 6972;